<unk>	0
<s>	0
</s>	0
▁क	-0
▁ह	-1
▁म	-2
▁स	-3
▁व	-4
ने	-5
▁के	-6
ें	-7
▁प	-8
्र	-9
▁है	-10
ार	-11
▁में	-12
▁ब	-13
या	-14
ान	-15
▁र	-16
ों	-17
▁अ	-18
▁द	-19
्य	-20
▁इ	-21
▁ज	-22
▁ल	-23
▁ने	-24
और	-25
ता	-26
▁और	-27
▁की	-28
त्	-29
ना	-30
र्	-31
िया	-32
▁त	-33
▁भ	-34
ला	-35
ले	-36
▁आ	-37
▁उ	-38
▁ग	-39
▁च	-40
▁इस	-41
▁का	-42
▁हो	-43
क्	-44
नी	-45
सा	-46
स्	-47
हा	-48
▁ख	-49
▁य	-50
▁श	-51
त्र	-52
▁को	-53
ंग	-54
कर	-55
ड़	-56
ति	-57
सी	-58
ाज	-59
िए	-60
▁ए	-61
▁फ	-62
ाने	-63
▁कर	-64
▁पर	-65
▁वा	-66
▁सा	-67
▁से	-68
▁हैं	-69
ते	-70
ली	-71
ही	-72
▁2	-73
▁न	-74
त्त	-75
र्ष	-76
▁दि	-77
▁बी	-78
▁भी	-79
▁वि	-80
▁स्	-81
▁हि	-82
▁प्र	-83
▁लिए	-84
▁व्य	-85
▁वर्ष	-86
01	-87
ंद	-88
ओं	-89
ती	-90
था	-91
रक	-92
रू	-93
सक	-94
से	-95
िक	-96
ेट	-97
ौर	-98
्क	-99
▁6	-100
ड़ी	-101
थान	-102
न्य	-103
मार	-104
हीं	-105
िला	-106
्रे	-107
▁कि	-108
▁क्	-109
▁बै	-110
▁मु	-111
▁मे	-112
▁रू	-113
▁सु	-114
▁ही	-115
▁हु	-116
काने	-117
रकार	-118
▁राज	-119
कानेर	-120
▁किया	-121
▁नेता	-122
▁वाले	-123
▁व्यव	-124
▁वित्त	-125
▁सरकार	-126
▁बीकानेर	-127
..	-128
ंक	-129
ंस	-130
आई	-131
घट	-132
जी	-133
टी	-134
ढ़	-135
तन	-136
तम	-137
थे	-138
धर	-139
पी	-140
प्	-141
बर	-142
भि	-143
रव	-144
वस	-145
षे	-146
ाद	-147
ाय	-148
ित	-149
िल	-150
ीन	-151
ॅग	-152
ेन	-153
ोग	-154
ोट	-155
ोन	-156
▁5	-157
▁छ	-158
▁ट	-159
ंग्	-160
ंसा	-161
क्ष	-162
ख्य	-163
घटा	-164
डों	-165
दान	-166
धिक	-167
नाव	-168
मकर	-169
मान	-170
सकी	-171
स्ट	-172
हार	-173
ारत	-174
िंग	-175
ुरू	-176
▁एक	-177
▁कै	-178
▁खा	-179
▁जा	-180
▁जि	-181
▁तो	-182
▁पब	-183
▁मह	-184
▁मा	-185
▁ला	-186
▁वे	-187
▁सम	-188
▁हर	-189
▁हा	-190
ंत्र	-191
डोंग	-192
सीआई	-193
स्था	-194
ौरान	-195
्रेस	-196
▁201	-197
▁अभि	-198
▁कहा	-199
▁कोई	-200
▁गया	-201
▁घटा	-202
▁चार	-203
▁फ्र	-204
▁बाद	-205
▁वोट	-206
▁साथ	-207
षेत्र	-208
िलाओं	-209
▁अधिक	-210
▁अन्य	-211
▁उसकी	-212
▁करने	-213
▁काॅग	-214
▁जमकर	-215
▁दिया	-216
▁नहीं	-217
▁भारत	-218
▁शुरू	-219
▁दौरान	-220
▁प्रति	-221
▁मुख्य	-222
▁स्थान	-223
▁हिंसा	-224
▁क्षेत्र	-225
▁महिलाओं	-226
▁काॅग्रेस	-227
▁व्यवस्था	-228
-2	-229
15	-230
ंज	-231
ंट	-232
ंड	-233
ंभ	-234
एड	-235
एस	-236
कस	-237
का	-238
के	-239
गु	-240
चा	-241
च्	-242
छे	-243
टन	-244
टल	-245
ठन	-246
ठी	-247
डि	-248
णत	-249
णा	-250
णे	-251
तर	-252
दय	-253
दी	-254
दे	-255
धन	-256
धे	-257
नम	-258
नर	-259
नु	-260
न्	-261
पा	-262
फा	-263
बे	-264
बै	-265
भा	-266
भू	-267
मह	-268
मा	-269
म्	-270
ये	-271
रण	-272
रफ	-273
री	-274
रो	-275
लत	-276
लो	-277
वं	-278
वर	-279
वल	-280
वा	-281
वृ	-282
शक	-283
शत	-284
सन	-285
सु	-286
हर	-287
िछ	-288
िट	-289
ीय	-290
ुआ	-291
ुद	-292
ुश	-293
ूल	-294
ूह	-295
ेज	-296
ैच	-297
ैस	-298
ोज	-299
ोह	-300
ौन	-301
▁'	-302
▁7	-303
▁:	-304
▁ड	-305
...	-306
012	-307
ंकि	-308
ंगो	-309
ंधर	-310
ंभव	-311
ंसर	-312
इजी	-313
उंज	-314
एडा	-315
कर्	-316
गार	-317
जार	-318
जोन	-319
ठता	-320
ड़क	-321
ड़न	-322
ढ़ा	-323
तना	-324
तरा	-325
तिक	-326
तीश	-327
थित	-328
धाय	-329
धार	-330
नएस	-331
नता	-332
नीय	-333
न्ह	-334
पने	-335
प्त	-336
फाई	-337
बसे	-338
बेई	-339
भत्	-340
भूत	-341
मने	-342
मीन	-343
यटी	-344
यता	-345
यदे	-346
रतम	-347
रीज	-348
र्भ	-349
र्म	-350
लते	-351
लिए	-352
लीज	-353
लेड	-354
लों	-355
वसर	-356
वसी	-357
वेट	-358
श्क	-359
षमा	-360
सकल	-361
सना	-362
सने	-363
सम्	-364
ससे	-365
साथ	-366
सान	-367
सिक	-368
स्व	-369
हना	-370
हने	-371
हले	-372
हां	-373
हात	-374
ांस	-375
ाना	-376
ासन	-377
िगु	-378
िर्	-379
िवृ	-380
ुणे	-381
ूरो	-382
ृदय	-383
ेकर	-384
ेती	-385
ेबै	-386
ोकर	-387
ोकस	-388
ोदी	-389
ोर्	-390
ोली	-391
ोसा	-392
ौतम	-393
ौथे	-394
्यू	-395
्रक	-396
▁56	-397
▁65	-398
▁आई	-399
▁आए	-400
▁आम	-401
▁आय	-402
▁कु	-403
▁चु	-404
▁छह	-405
▁जी	-406
▁टे	-407
▁तक	-408
▁था	-409
▁थे	-410
▁दे	-411
▁धर	-412
▁नो	-413
▁बख	-414
▁बि	-415
▁मत	-416
▁यह	-417
▁या	-418
▁ये	-419
▁रि	-420
▁लग	-421
▁ली	-422
▁वह	-423
▁शे	-424
▁सी	-425
ंटरव	-426
ंडरव	-427
ंद्र	-428
ंधरा	-429
कर्स	-430
क्का	-431
क्ति	-432
क्वल	-433
क्सी	-434
गारा	-435
च्छे	-436
ड़ीं	-437
ढ़ें	-438
ताया	-439
त्नी	-440
त्पी	-441
त्मह	-442
त्या	-443
त्रा	-444
त्री	-445
थाना	-446
धायक	-447
नमें	-448
नाये	-449
न्यु	-450
पक्ष	-451
पड़ी	-452
प्टन	-453
लाके	-454
लाते	-455
लिया	-456
लोनी	-457
वराज	-458
वसीय	-459
वाली	-460
शकों	-461
संभव	-462
स्सा	-463
ाजपा	-464
ाप्त	-465
ार्क	-466
िछले	-467
ियां	-468
ुदाय	-469
ेंचा	-470
ेनान	-471
ैचों	-472
ैसला	-473
ोंने	-474
ोगों	-475
ोजना	-476
ोनों	-477
▁215	-478
▁अनु	-479
▁इसे	-480
▁उठी	-481
▁उधे	-482
▁एडि	-483
▁एवं	-484
▁खबर	-485
▁खाप	-486
▁खुश	-487
▁गठन	-488
▁गणत	-489
▁गुआ	-490
▁चरण	-491
▁छपी	-492
▁जरू	-493
▁डेन	-494
▁तरफ	-495
▁तले	-496
▁तीन	-497
▁तौर	-498
▁दिन	-499
▁पति	-500
▁फिट	-501
▁बीच	-502
▁ब्र	-503
▁मान	-504
▁मूल	-505
▁यौन	-506
▁रहा	-507
▁रही	-508
▁रूक	-509
▁रूप	-510
▁रूस	-511
▁रेट	-512
▁रोग	-513
▁लाख	-514
▁वसु	-515
▁शहर	-516
▁शान	-517
▁संद	-518
▁सहा	-519
▁सात	-520
▁सिल	-521
▁हनी	-522
▁हित	-523
▁हुई	-524
▁हुए	-525
-2012	-526
ंग्सी	-527
ंत्री	-528
क्ष्य	-529
नएसजी	-530
नीतिक	-531
नीयों	-532
भत्ता	-533
मन्यु	-534
मानों	-535
मारोह	-536
मार्क	-537
रतमंद	-538
लांकि	-539
श्किल	-540
सम्बर	-541
ियाणा	-542
िर्धन	-543
ोकरेज	-544
ोकसभा	-545
ोर्टल	-546
▁2018	-547
▁2019	-548
▁अपने	-549
▁अमीन	-550
▁अवसर	-551
▁आसान	-552
▁आस्ट	-553
▁इतना	-554
▁इससे	-555
▁उन्ह	-556
▁उसने	-557
▁कथित	-558
▁करना	-559
▁कहना	-560
▁खतरा	-561
▁खासा	-562
▁खेती	-563
▁गाना	-564
▁गौतम	-565
▁चलते	-566
▁चौथे	-567
▁जनता	-568
▁जाता	-569
▁जाते	-570
▁जाने	-571
▁जिया	-572
▁ट्रक	-573
▁तनाव	-574
▁थाना	-575
▁दलों	-576
▁दिवस	-577
▁धरना	-578
▁पहले	-579
▁पुणे	-580
▁फर्म	-581
▁बढ़ा	-582
▁बैंक	-583
▁बैनर	-584
▁बोली	-585
▁भड़क	-586
▁माटी	-587
▁मिला	-588
▁मोदी	-589
▁यहां	-590
▁यूरो	-591
▁रजोन	-592
▁रहने	-593
▁राजे	-594
▁लेकर	-595
▁वहीं	-596
▁वाली	-597
▁वेतन	-598
▁शासन	-599
▁सतीश	-600
▁सबसे	-601
▁समूह	-602
▁सोसा	-603
▁स्तन	-604
▁हजार	-605
▁हालत	-606
▁हृदय	-607
▁हेबै	-608
▁होता	-609
▁होती	-610
▁होते	-611
▁होनी	-612
ंडरवेट	-613
ंद्रित	-614
िगुड़ी	-615
िवृत्त	-616
▁अच्छे	-617
▁आत्मह	-618
▁इंटरव	-619
▁इक्वल	-620
▁इलाके	-621
▁इसलिए	-622
▁उत्पी	-623
▁कासना	-624
▁कुमार	-625
▁केसाथ	-626
▁कैंसर	-627
▁घटाकर	-628
▁चलाते	-629
▁चुनाव	-630
▁जिससे	-631
▁टेस्ट	-632
▁दशकों	-633
▁देहात	-634
▁दोनों	-635
▁नोएडा	-636
▁पक्का	-637
▁पढ़ें	-638
▁पत्नी	-639
▁पार्क	-640
▁पिछले	-641
▁फैसला	-642
▁बताया	-643
▁बिहार	-644
▁बैठता	-645
▁भाजपा	-646
▁मतदान	-647
▁मनाये	-648
▁मांगो	-649
▁मैचों	-650
▁योजना	-651
▁रिलीज	-652
▁लगाने	-653
▁लाउंज	-654
▁लोगों	-655
▁वायदे	-656
▁सामने	-657
▁सीरीज	-658
▁सुधार	-659
▁सुषमा	-660
▁हुबेई	-661
▁हेनान	-662
ंग्डोंग	-663
वालीफाई	-664
ेंचाइजी	-665
्रेलिया	-666
▁अभिभूत	-667
▁आईसीआई	-668
▁एडिलेड	-669
▁एनएसजी	-670
▁कापड़ी	-671
▁कैप्टन	-672
▁जिनमें	-673
▁दिवसीय	-674
▁निर्धन	-675
▁नेताओं	-676
▁पोर्टल	-677
▁प्रदान	-678
▁फ्रांस	-679
▁बखियां	-680
▁मंत्री	-681
▁मानसिक	-682
▁मेकर्स	-683
▁यात्रा	-684
▁राजस्व	-685
▁रेटिंग	-686
▁लोकसभा	-687
▁वर्षीय	-688
▁वर्षों	-689
▁विधायक	-690
▁वोटिंग	-691
▁शेडोंग	-692
▁संदर्भ	-693
▁समारोह	-694
▁समुदाय	-695
▁सहायता	-696
▁सुत्री	-697
▁स्वराज	-698
▁हनीसकल	-699
▁हरसंभव	-700
▁हिस्सा	-701
माननीयों	-702
▁अंडरवेट	-703
▁उधेड़ीं	-704
▁गणतंत्र	-705
▁दिसम्बर	-706
▁प्रतिशत	-707
▁प्राप्त	-708
▁मुश्किल	-709
▁वसुंधरा	-710
▁व्यक्ति	-711
▁व्यवहार	-712
▁शानक्सी	-713
▁सरकारें	-714
▁साक्ष्य	-715
▁सोसायटी	-716
▁स्थानों	-717
▁हरियाणा	-718
▁हालांकि	-719
▁अनुमानों	-720
▁अभिमन्यु	-721
▁इंटरव्यू	-722
▁उत्पीड़न	-723
▁उन्होंने	-724
▁केंद्रित	-725
▁जरूरतमंद	-726
▁डेनमार्क	-727
▁ब्रोकरेज	-728
▁माटीगारा	-729
▁राजनीतिक	-730
▁आत्महत्या	-731
▁क्वालीफाई	-732
▁जियांग्सी	-733
▁प्रतिपक्ष	-734
▁सिलिगुड़ी	-735
▁आईसीआईसीआई	-736
▁गुआंग्डोंग	-737
▁फ्रेंचाइजी	-738
▁रजोनिवृत्त	-739
▁आस्ट्रेलिया	-740
12	-741
18	-742
19	-743
20	-744
21	-745
56	-746
65	-747
ंच	-748
ंत	-749
ंध	-750
ंन	-751
अं	-752
अच	-753
अध	-754
अन	-755
अप	-756
अभ	-757
अम	-758
अव	-759
आं	-760
आए	-761
आत	-762
आम	-763
आय	-764
आस	-765
इं	-766
इक	-767
इज	-768
इत	-769
इल	-770
इस	-771
ईस	-772
उं	-773
उठ	-774
उत	-775
उध	-776
उन	-777
उस	-778
एक	-779
एन	-780
एव	-781
कथ	-782
कल	-783
कह	-784
कि	-785
की	-786
कु	-787
कै	-788
को	-789
खत	-790
खब	-791
खा	-792
खि	-793
खु	-794
खे	-795
ख्	-796
गठ	-797
गण	-798
गय	-799
गा	-800
गो	-801
गौ	-802
ग्	-803
चर	-804
चल	-805
चु	-806
चो	-807
चौ	-808
छप	-809
छल	-810
छह	-811
जन	-812
जप	-813
जम	-814
जर	-815
जस	-816
जा	-817
जि	-818
जे	-819
जो	-820
टर	-821
टा	-822
टि	-823
टे	-824
ट्	-825
ठत	-826
डर	-827
डा	-828
डे	-829
डो	-830
तं	-831
तक	-832
तद	-833
तल	-834
तो	-835
तौ	-836
थि	-837
दर	-838
दल	-839
दश	-840
दा	-841
दि	-842
दो	-843
दौ	-844
द्	-845
धा	-846
धि	-847
नए	-848
नक	-849
नत	-850
नन	-851
नस	-852
नह	-853
नि	-854
नो	-855
पक	-856
पड	-857
पढ	-858
पत	-859
पन	-860
पब	-861
पर	-862
पह	-863
पि	-864
पु	-865
पो	-866
फर	-867
फि	-868
फै	-869
फ्	-870
बख	-871
बढ	-872
बत	-873
बस	-874
बा	-875
बि	-876
बी	-877
बो	-878
ब्	-879
भड	-880
भत	-881
भव	-882
भी	-883
मं	-884
मक	-885
मत	-886
मन	-887
मि	-888
मी	-889
मु	-890
मू	-891
मे	-892
मै	-893
मो	-894
यक	-895
यट	-896
यत	-897
यद	-898
यव	-899
यह	-900
यु	-901
यू	-902
यो	-903
यौ	-904
रज	-905
रत	-906
रद	-907
रन	-908
रस	-909
रह	-910
रा	-911
रि	-912
रे	-913
लग	-914
लि	-915
वह	-916
वि	-917
वे	-918
वो	-919
व्	-920
शह	-921
शा	-922
शु	-923
शे	-924
श्	-925
षम	-926
षी	-927
षो	-928
ष्	-929
सं	-930
सज	-931
सत	-932
सब	-933
सभ	-934
सम	-935
सर	-936
सल	-937
सस	-938
सह	-939
सि	-940
सो	-941
हज	-942
हत	-943
हन	-944
हल	-945
हि	-946
हु	-947
हृ	-948
हे	-949
है	-950
हो	-951
़क	-952
़न	-953
़ा	-954
़ी	-955
़े	-956
ां	-957
ाइ	-958
ाई	-959
ाउ	-960
ाओ	-961
ाक	-962
ाख	-963
ाट	-964
ाण	-965
ात	-966
ाथ	-967
ाप	-968
ाम	-969
ाल	-970
ाव	-971
ास	-972
ाॅ	-973
िं	-974
िग	-975
िध	-976
िन	-977
िप	-978
िभ	-979
िम	-980
िय	-981
िर	-982
िव	-983
िश	-984
िस	-985
िह	-986
ीं	-987
ीआ	-988
ीक	-989
ीग	-990
ीच	-991
ीज	-992
ीड	-993
ीत	-994
ीफ	-995
ीर	-996
ीश	-997
ीस	-998
ुं	-999
ुई	-1000
ुए	-1001
ुख	-1002
ुड	-1003
ुण	-1004
ुत	-1005
ुध	-1006
ुन	-1007
ुब	-1008
ुम	-1009
ुर	-1010
ुष	-1011
ूक	-1012
ूत	-1013
ूप	-1014
ूर	-1015
ूस	-1016
ृत	-1017
ृद	-1018
ेई	-1019
ेक	-1020
ेड	-1021
ेत	-1022
ेब	-1023
ेर	-1024
ेल	-1025
ेस	-1026
ेह	-1027
ैं	-1028
ैठ	-1029
ैन	-1030
ैप	-1031
ोई	-1032
ोए	-1033
ोक	-1034
ोत	-1035
ोद	-1036
ोर	-1037
ोल	-1038
ोस	-1039
ौत	-1040
ौथ	-1041
्छ	-1042
्ट	-1043
्ड	-1044
्त	-1045
्थ	-1046
्ध	-1047
्न	-1048
्प	-1049
्ब	-1050
्भ	-1051
्म	-1052
्व	-1053
्ष	-1054
्स	-1055
्ह	-1056
▁औ	-1057
▁घ	-1058
▁थ	-1059
▁ध	-1060
018	-1061
019	-1062
201	-1063
ंने	-1064
आंग	-1065
आत्	-1066
ईसी	-1067
उत्	-1068
करे	-1069
कसभ	-1070
कार	-1071
कों	-1072
क्क	-1073
क्त	-1074
क्व	-1075
क्स	-1076
गया	-1077
गान	-1078
गों	-1079
ग्र	-1080
चला	-1081
चाइ	-1082
चार	-1083
चों	-1084
च्छ	-1085
छपी	-1086
छले	-1087
जना	-1088
जनी	-1089
जस्	-1090
टरव	-1091
टीग	-1092
ट्र	-1093
डरव	-1094
डेन	-1095
ताओ	-1096
तिप	-1097
तिश	-1098
त्न	-1099
त्प	-1100
त्म	-1101
दर्	-1102
दाय	-1103
द्र	-1104
धरा	-1105
नही	-1106
नान	-1107
नाय	-1108
नीत	-1109
नीस	-1110
नेत	-1111
नेर	-1112
नों	-1113
पक्	-1114
पड़	-1115
प्ट	-1116
फर्	-1117
फ्र	-1118
ब्र	-1119
भार	-1120
भिभ	-1121
भिम	-1122
मंद	-1123
में	-1124
यहा	-1125
यां	-1126
याण	-1127
यात	-1128
यों	-1129
रना	-1130
रने	-1131
राज	-1132
रान	-1133
रूर	-1134
रें	-1135
र्ट	-1136
र्ध	-1137
र्स	-1138
लां	-1139
लाओ	-1140
लाक	-1141
लात	-1142
लीफ	-1143
वस्	-1144
व्य	-1145
शान	-1146
षों	-1147
ष्य	-1148
संभ	-1149
सजी	-1150
सला	-1151
साय	-1152
सीआ	-1153
सीय	-1154
सुं	-1155
स्थ	-1156
हत्	-1157
हाय	-1158
हों	-1159
़ें	-1160
ांग	-1161
ाकर	-1162
ाक्	-1163
ाजप	-1164
ाजे	-1165
ाटी	-1166
ाता	-1167
ाते	-1168
ानक	-1169
ानन	-1170
ानस	-1171
ानो	-1172
ाप्	-1173
ायक	-1174
ाया	-1175
ारा	-1176
ारो	-1177
ार्	-1178
ाला	-1179
ाली	-1180
ाले	-1181
ासा	-1182
ित्	-1183
िलि	-1184
िली	-1185
िले	-1186
िस्	-1187
ीड़	-1188
ीरी	-1189
ुड़	-1190
ुना	-1191
ृत्	-1192
ेंच	-1193
ेटि	-1194
ेड़	-1195
ेतन	-1196
ेस्	-1197
ेहा	-1198
ैंस	-1199
ैप्	-1200
ोंग	-1201
ोएड	-1202
ोटि	-1203
ोता	-1204
ोनि	-1205
ोनी	-1206
्कि	-1207
्ता	-1208
्बर	-1209
्यक	-1210
्यव	-1211
्या	-1212
्यु	-1213
्रत	-1214
्रद	-1215
्रा	-1216
्रि	-1217
्री	-1218
्रो	-1219
्सा	-1220
्सी	-1221
▁20	-1222
▁21	-1223
▁अं	-1224
▁अच	-1225
▁अध	-1226
▁अन	-1227
▁अप	-1228
▁अभ	-1229
▁अम	-1230
▁अव	-1231
▁आस	-1232
▁इं	-1233
▁इक	-1234
▁इत	-1235
▁इल	-1236
▁उठ	-1237
▁उध	-1238
▁उन	-1239
▁उस	-1240
▁एड	-1241
▁एन	-1242
▁एव	-1243
▁कथ	-1244
▁कह	-1245
▁खत	-1246
▁खब	-1247
▁खु	-1248
▁खे	-1249
▁गठ	-1250
▁गण	-1251
▁गु	-1252
▁गौ	-1253
▁घट	-1254
▁चर	-1255
▁चल	-1256
▁चौ	-1257
▁जन	-1258
▁जम	-1259
▁जर	-1260
▁तर	-1261
▁तल	-1262
▁ती	-1263
▁तौ	-1264
▁दल	-1265
▁दश	-1266
▁दो	-1267
▁दौ	-1268
▁नि	-1269
▁पक	-1270
▁पढ	-1271
▁पत	-1272
▁पह	-1273
▁पा	-1274
▁पि	-1275
▁पु	-1276
▁पो	-1277
▁प्	-1278
▁फि	-1279
▁फै	-1280
▁बढ	-1281
▁बत	-1282
▁बा	-1283
▁बो	-1284
▁भड	-1285
▁भा	-1286
▁मं	-1287
▁मन	-1288
▁मि	-1289
▁मू	-1290
▁मै	-1291
▁मो	-1292
▁यू	-1293
▁यो	-1294
▁यौ	-1295
▁रज	-1296
▁रह	-1297
▁रा	-1298
▁रे	-1299
▁रो	-1300
▁लि	-1301
▁ले	-1302
▁लो	-1303
▁वर	-1304
▁वस	-1305
▁वो	-1306
▁व्	-1307
▁शह	-1308
▁शा	-1309
▁शु	-1310
▁सं	-1311
▁सत	-1312
▁सब	-1313
▁सर	-1314
▁सह	-1315
▁सि	-1316
▁सो	-1317
▁हज	-1318
▁हन	-1319
▁हृ	-1320
▁हे	-1321
-201	-1322
ंग्ड	-1323
ंदर्	-1324
आंग्	-1325
आईसी	-1326
एसजी	-1327
करेज	-1328
कसभा	-1329
खिया	-1330
गाने	-1331
ग्रे	-1332
जोनि	-1333
ट्रे	-1334
डिले	-1335
तदान	-1336
तमंद	-1337
ताओं	-1338
त्ता	-1339
धरना	-1340
नमार	-1341
नीति	-1342
नीसक	-1343
पीड़	-1344
मन्य	-1345
महत्	-1346
मारो	-1347
म्बर	-1348
रवेट	-1349
रव्य	-1350
रिया	-1351
र्टल	-1352
र्धन	-1353
र्षी	-1354
लांक	-1355
लाओं	-1356
लीफा	-1357
हिला	-1358
ाजनी	-1359
ाजस्	-1360
ानक्	-1361
ाननी	-1362
ानेर	-1363
ानों	-1364
ारें	-1365
ित्त	-1366
ियाण	-1367
िलीज	-1368
िहार	-1369
ीरीज	-1370
ुड़ी	-1371
ुत्र	-1372
ुनाव	-1373
ुमान	-1374
ुमार	-1375
ृत्त	-1376
ेड़ी	-1377
ेडों	-1378
ेत्र	-1379
ेस्ट	-1380
ेहात	-1381
ोएडा	-1382
्किल	-1383
्यक्	-1384
्रति	-1385
्रित	-1386
्रें	-1387
्रेल	-1388
▁अंड	-1389
▁अच्	-1390
▁अवस	-1391
▁आत्	-1392
▁आस्	-1393
▁इंट	-1394
▁इक्	-1395
▁इला	-1396
▁इसल	-1397
▁इसस	-1398
▁उत्	-1399
▁उन्	-1400
▁उसक	-1401
▁काप	-1402
▁कास	-1403
▁काॅ	-1404
▁कें	-1405
▁केस	-1406
▁क्व	-1407
▁क्ष	-1408
▁खतर	-1409
▁गान	-1410
▁चला	-1411
▁जिन	-1412
▁जिस	-1413
▁ट्र	-1414
▁तना	-1415
▁थान	-1416
▁दशक	-1417
▁दिव	-1418
▁दिस	-1419
▁दोन	-1420
▁दौर	-1421
▁नही	-1422
▁नेत	-1423
▁पक्	-1424
▁पढ़	-1425
▁पत्	-1426
▁पार	-1427
▁पिछ	-1428
▁फर्	-1429
▁फैस	-1430
▁बढ़	-1431
▁बता	-1432
▁बीक	-1433
▁बैं	-1434
▁बैठ	-1435
▁बैन	-1436
▁भड़	-1437
▁भाज	-1438
▁भार	-1439
▁मना	-1440
▁मुख	-1441
▁मुश	-1442
▁मेक	-1443
▁मैच	-1444
▁यहा	-1445
▁योज	-1446
▁लाउ	-1447
▁लोग	-1448
▁वर्	-1449
▁वही	-1450
▁वाय	-1451
▁वाल	-1452
▁विध	-1453
▁सती	-1454
▁समु	-1455
▁समू	-1456
▁सरक	-1457
▁साम	-1458
▁सुध	-1459
▁सुष	-1460
▁स्त	-1461
▁स्थ	-1462
▁स्व	-1463
▁हरस	-1464
▁हाल	-1465
▁हिं	-1466
▁हुब	-1467
▁हेन	-1468
▁होत	-1469
▁होन	-1470
ंदर्भ	-1471
ईसीआई	-1472
गुड़ी	-1473
घटाकर	-1474
चाइजी	-1475
टीगार	-1476
डिलेड	-1477
तंत्र	-1478
थानों	-1479
धेड़ी	-1480
नीसकल	-1481
नुमान	-1482
न्हों	-1483
पीड़न	-1484
माननी	-1485
यात्र	-1486
रव्यू	-1487
रूरतम	-1488
र्षों	-1489
लीफाई	-1490
वृत्त	-1491
सायटी	-1492
सुंधर	-1493
हायता	-1494
ानसिक	-1495
ियांग	-1496
िलिगु	-1497
ुआंग्	-1498
ॅग्रे	-1499
ेटिंग	-1500
ेडोंग	-1501
ेनमार	-1502
ोटिंग	-1503
्रोकर	-1504
▁अभिभ	-1505
▁अभिम	-1506
▁एनएस	-1507
▁केंद	-1508
▁केसा	-1509
▁कैंस	-1510
▁कैप्	-1511
▁क्वा	-1512
▁क्षे	-1513
▁जिनम	-1514
▁निर्	-1515
▁पोर्	-1516
▁प्रद	-1517
▁प्रा	-1518
▁फ्रा	-1519
▁मांग	-1520
▁लोकस	-1521
▁समार	-1522
▁समुद	-1523
▁साक्	-1524
▁स्वर	-1525
▁हाला	-1526
▁हिस्	-1527
▁हुबे	-1528
ंग्डों	-1529
▁	-1530
ा	-1531
े	-1532
र	-1533
क	-1534
न	-1535
स	-1536
्	-1537
ं	-1538
त	-1539
ह	-1540
ी	-1541
ि	-1542
म	-1543
ो	-1544
व	-1545
य	-1546
ल	-1547
प	-1548
ज	-1549
ै	-1550
द	-1551
ब	-1552
।	-1553
ग	-1554
ु	-1555
ट	-1556
भ	-1557
ए	-1558
अ	-1559
इ	-1560
ड	-1561
थ	-1562
च	-1563
श	-1564
ू	-1565
,	-1566
आ	-1567
औ	-1568
ख	-1569
ष	-1570
ई	-1571
उ	-1572
ध	-1573
फ	-1574
़	-1575
2	-1576
ौ	-1577
1	-1578
5	-1579
6	-1580
छ	-1581
ण	-1582
-	-1583
.	-1584
0	-1585
ओ	-1586
ठ	-1587
'	-1588
:	-1589
घ	-1590
ढ	-1591
ृ	-1592
ॅ	-1593
7	-1594
8	-1595
9	-1596
