<unk>	0
<s>	0
</s>	0
ा	-3.77354
▁	-3.78978
ी	-3.84371
▁के	-3.95126
े	-3.99957
र	-4.01667
।	-4.10519
न	-4.17258
▁में	-4.24117
ल	-4.26469
▁है	-4.37006
,	-4.4483
▁की	-4.45525
▁को	-4.5937
म	-4.60486
क	-4.66761
त	-4.70481
ि	-4.70483
ों	-4.70686
▁से	-4.73831
ो	-4.75211
▁का	-4.83228
.	-4.88549
ट	-4.91251
▁और	-4.94571
स	-4.98237
व	-5.01234
▁ने	-5.06201
▁पर	-5.06329
ने	-5.08704
ज	-5.11854
्	-5.15529
द	-5.15664
प	-5.16096
ह	-5.18866
ं	-5.20742
▁कि	-5.2119
ू	-5.21421
▁आ	-5.2489
▁स	-5.25558
ता	-5.28782
▁अ	-5.30351
ु	-5.30523
▁हैं	-5.32325
▁इस	-5.37433
ग	-5.39923
य	-5.41937
ब	-5.44035
ना	-5.45811
▁कर	-5.47761
▁ब	-5.48314
र्	-5.52516
▁भी	-5.54864
▁प	-5.54901
च	-5.59542
▁प्र	-5.67254
▁ज	-5.67417
▁म	-5.68597
-	-5.69596
▁क	-5.74075
▁एक	-5.75858
ड	-5.75873
▁न	-5.7601
रा	-5.76209
श	-5.77725
ण	-5.79407
▁लिए	-5.80354
कर	-5.80999
ित	-5.84827
ई	-5.88018
ला	-5.89372
▁नहीं	-5.90424
वा	-5.91466
▁श	-5.91823
▁व	-5.92889
ै	-5.94502
▁हो	-5.94937
▁ग	-5.99174
ख	-5.99736
▁ही	-6.03455
फ	-6.04084
िक	-6.06197
▁ह	-6.06499
▁द	-6.10831
्य	-6.1217
भ	-6.124
ते	-6.12742
▁फ	-6.13086
▁जा	-6.13303
▁किया	-6.13421
▁था	-6.13477
▁कहा	-6.1448
ए	-6.15486
री	-6.16666
▁उ	-6.16903
ध	-6.18381
नी	-6.19135
▁वि	-6.19875
▁तो	-6.20742
▁यह	-6.21179
थ	-6.22304
▁मा	-6.22367
▁च	-6.25234
या	-6.26145
▁गया	-6.27261
इ	-6.28895
ड़	-6.30843
▁सं	-6.31017
ौ	-6.31636
▁करने	-6.35257
ली	-6.37426
ॉ	-6.37427
▁भ	-6.38293
का	-6.38398
▁सा	-6.38813
▁ख	-6.3965
▁र	-6.40064
्या	-6.40189
ें	-6.41616
ती	-6.4173
▁पा	-6.42466
ष	-6.43776
▁साथ	-6.44193
▁त	-6.44315
त्	-6.44395
ियों	-6.4445
मा	-6.44828
से	-6.49332
्र	-6.49943
िल	-6.50736
क्ष	-6.51952
▁बाद	-6.53726
ंग	-6.53962
सा	-6.54035
ति	-6.56036
1	-6.57036
▁ल	-6.57276
▁ले	-6.57471
ाय	-6.57489
▁मिल	-6.58687
▁रहे	-6.62336
0	-6.6265
ाई	-6.62673
▁जो	-6.62863
▁दे	-6.63712
िया	-6.63792
ंड	-6.64868
▁थी	-6.65299
त्र	-6.67488
a	-6.68737
e	-6.69166
:	-6.69232
ंद	-6.7072
▁हुए	-6.7089
ले	-6.71163
▁ए	-6.71441
स्	-6.71485
▁ट	-6.71506
▁उनक	-6.71978
▁सरकार	-6.72582
▁लोग	-6.7386
▁तक	-6.74058
t	-6.76912
स्ट	-6.77581
▁वह	-6.78243
स्त	-6.79403
)	-6.79608
गा	-6.80233
▁अपने	-6.80283
▁या	-6.80358
▁दिया	-6.80931
बा	-6.81504
ठ	-6.81966
▁2	-6.82249
के	-6.82291
ीय	-6.82723
▁बना	-6.83976
▁रही	-6.84025
्ट	-6.8425
▁गई	-6.84478
रे	-6.84581
▁(	-6.84844
कार	-6.85059
मान	-6.86206
▁कम	-6.86999
▁सी	-6.87071
▁उन्होंने	-6.87688
▁नि	-6.8925
▁रहा	-6.89523
▁मु	-6.89684
▁दो	-6.90022
में	-6.90675
▁लेकिन	-6.92217
▁ला	-6.92361
8	-6.92734
▁इ	-6.9278
▁स्	-6.92821
▁कुछ	-6.93275
्म	-6.93505
▁इन	-6.93744
ेश	-6.93966
s	-6.94305
▁सु	-6.94608
ओं	-6.94864
▁रा	-6.95108
ज़	-6.95422
▁दी	-6.95426
सी	-6.95768
i	-6.95871
▁लग	-6.97738
दा	-6.97791
जी	-6.98208
्स	-6.98488
▁थे	-6.9871
िंग	-6.99881
▁आप	-7.01351
▁ध	-7.01624
जा	-7.02093
हा	-7.02658
▁हम	-7.03524
▁लगा	-7.03776
▁बा	-7.03926
ंस	-7.04686
▁1	-7.04898
▁होने	-7.06256
‍	-7.06358
4	-7.07382
▁पहले	-7.07916
3	-7.08004
श्	-7.0822
ां	-7.08275
▁उस	-7.08757
ंत	-7.08918
▁जब	-7.09894
वी	-7.1004
चा	-7.10299
▁दिन	-7.10444
5	-7.11263
वि	-7.11447
▁वाले	-7.11587
▁बात	-7.1159
6	-7.13074
o	-7.13341
की	-7.13351
▁साल	-7.14828
ये	-7.15042
मी	-7.16023
पी	-7.17657
▁वे	-7.17885
़	-7.18405
▁मे	-7.18882
टी	-7.19329
▁कह	-7.20319
▁सम	-7.20583
9	-7.22021
▁बे	-7.22082
▁गए	-7.22171
वर	-7.22201
न्	-7.22938
▁घ	-7.24009
▁ये	-7.241
▁भारत	-7.24105
▁पुलिस	-7.24224
▁चल	-7.2427
▁आपक	-7.24379
▁अब	-7.24579
▁इसके	-7.25045
▁करते	-7.25649
▁उसक	-7.25903
▁बार	-7.25981
▁छ	-7.26025
2	-7.26086
ही	-7.26651
’	-7.27846
▁इं	-7.28447
जन	-7.28756
▁दि	-7.28771
▁देख	-7.29082
▁जिस	-7.29121
▁अपनी	-7.29465
▁राज	-7.29543
▁‘	-7.29707
▁रो	-7.30363
गी	-7.30713
शा	-7.30749
▁3	-7.31407
डी	-7.31435
▁सिंह	-7.31606
रण	-7.31726
▁किसी	-7.31757
▁देश	-7.32809
r	-7.32944
ंक	-7.33035
▁उन्हें	-7.33932
▁हर	-7.34365
▁रख	-7.34737
▁.	-7.34966
▁बि	-7.3522
▁पूर	-7.35507
दार	-7.36513
ूर	-7.36799
▁हुआ	-7.37121
▁ओ	-7.373
ेट	-7.37628
▁हि	-7.38359
ुल	-7.40112
क्स	-7.40272
पुर	-7.40441
▁बताया	-7.40557
योग	-7.40569
▁कई	-7.41155
क्त	-7.4144
▁आज	-7.42384
शन	-7.43027
▁कै	-7.43612
▁हुई	-7.43822
पा	-7.44151
▁मैं	-7.44199
आ	-7.44771
▁अनु	-7.44776
7	-7.4504
ंट	-7.4528
धा	-7.454
डे	-7.4613
▁स्व	-7.46702
▁पड़	-7.47022
▁'	-7.47262
▁मि	-7.47392
िस	-7.47457
ृ	-7.47776
▁नाम	-7.49879
बी	-7.50389
▁ना	-7.50422
क्र	-7.50496
▁तरह	-7.51027
▁कु	-7.51127
ेंगे	-7.51335
l	-7.51802
h	-7.51929
▁रूप	-7.51943
▁वर्ष	-7.52039
▁मान	-7.52046
...	-7.52991
▁उप	-7.53169
▁ऐस	-7.53483
d	-7.53825
▁पार्ट	-7.53883
▁गु	-7.54199
उ	-7.54436
▁बन	-7.54844
▁अभ	-7.5486
वार	-7.54949
▁पहुंच	-7.55757
▁दोन	-7.56047
▁घर	-7.56228
▁समय	-7.56433
▁रह	-7.57416
▁होता	-7.57454
▁पै	-7.57798
▁काम	-7.58602
देश	-7.59019
▁सभ	-7.59159
▁होगा	-7.59365
▁दिल्ली	-7.59739
द्वारा	-7.5974
▁बहुत	-7.5974
▁जान	-7.59943
▁क्षेत्र	-7.60758
▁20	-7.60766
▁मो	-7.60923
▁जाता	-7.61125
ड़ी	-7.61428
00	-7.61949
घ	-7.62459
एस	-7.62782
▁अधिकार	-7.62937
▁टीम	-7.63036
▁चुक	-7.63153
प्र	-7.64193
▁पास	-7.64238
▁फिल्म	-7.64948
▁फिर	-7.65036
▁महा	-7.65052
ँ	-7.66031
हार	-7.67336
ंच	-7.6802
▁ट्र	-7.69203
p	-7.69319
▁दौरान	-7.69319
▁कांग्रेस	-7.6932
ुक	-7.69508
▁जाने	-7.69809
▁राज्य	-7.69991
▁अस	-7.70025
?	-7.70443
भाव	-7.70445
▁चुनाव	-7.70449
▁झ	-7.71113
▁जिल	-7.7117
द्ध	-7.71609
▁तीन	-7.71841
ून	-7.72328
कि	-7.72409
▁4	-7.72463
▁करना	-7.72656
▁सकते	-7.72756
▁कार्य	-7.72825
वाल	-7.72868
▁पु	-7.7295
▁मामले	-7.73899
▁प्रति	-7.73975
▁एस	-7.74348
▁भाजपा	-7.75068
'	-7.75173
▁सबसे	-7.7524
▁सब	-7.75903
▁मोदी	-7.76274
▁मह	-7.76805
▁बता	-7.76822
▁|	-7.76914
▁ठ	-7.77297
▁दूसर	-7.77465
▁कुमार	-7.77581
▁कारण	-7.77648
ढ़	-7.77917
ग्र	-7.78153
▁बु	-7.78164
▁रि	-7.78182
एं	-7.78474
u	-7.78683
▁आरोप	-7.78686
▁महिला	-7.7869
▁लिया	-7.78874
अ	-7.78876
दान	-7.78906
▁प्रदेश	-7.79112
▁रे	-7.79159
▁यहां	-7.80394
▁निर्	-7.80411
फ़	-7.80531
▁वो	-7.80901
m	-7.81167
▁शुरू	-7.81168
▁ज्यादा	-7.81169
ियां	-7.81185
▁कंपन	-7.82462
▁सकता	-7.825
▁मै	-7.82609
▁मन	-7.82758
चार	-7.83147
▁पद	-7.83182
स्था	-7.83299
▁10	-7.83361
▁चि	-7.84088
वाद	-7.84463
▁आई	-7.84463
र्क	-7.84714
▁ग्र	-7.84718
▁काफ	-7.85307
▁अपना	-7.85477
▁गो	-7.8573
▁तु	-7.85773
▁वाली	-7.86451
▁क्या	-7.86549
▁खेल	-7.86619
ृत	-7.87015
▁जी	-7.87181
ढ	-7.87588
g	-7.87663
▁करोड़	-7.87681
▁पह	-7.87725
▁जारी	-7.87816
▁केंद्र	-7.87912
▁किए	-7.88329
व्य	-7.88499
▁खा	-7.88528
आई	-7.88529
▁एव	-7.88613
▁गा	-7.88837
▁होती	-7.88943
y	-7.89014
▁अन्य	-7.89072
िश	-7.89205
▁यू	-7.89339
c	-7.90384
▁बढ़	-7.90602
▁भर	-7.90935
▁दु	-7.91405
▁डा	-7.91491
▁जरूर	-7.91789
▁तथा	-7.91796
▁कॉ	-7.91985
ंप	-7.92715
▁अध्यक्ष	-7.93182
▁प्रधान	-7.93197
▁वर्	-7.93337
झ	-7.93682
▁पूर्व	-7.94622
िंद	-7.94762
▁भारतीय	-7.94852
▁चार	-7.95146
▁सो	-7.95504
▁अधिक	-7.95918
▁उन	-7.96431
▁5	-7.97449
▁अप	-7.9751
▁बीच	-7.97642
▁अगर	-7.97649
▁विश्व	-7.97714
▁शाम	-7.9776
▁मंत्री	-7.97887
▁डि	-7.97911
छ	-7.98176
मंत्री	-7.98216
▁बारे	-7.98407
▁उसे	-7.986
र्ड	-7.98704
पाल	-7.98762
/	-7.99023
ळ	-7.99023
▁पिछल	-7.99023
in	-7.99106
धार	-8.00007
▁लिख	-8.00549
▁मेर	-8.01858
न्द	-8.0202
गत	-8.02255
▁अच्छ	-8.02362
▁ऐसा	-8.02746
▁लड़	-8.03387
बंध	-8.03597
द्र	-8.03609
▁रुपये	-8.03639
▁जानकारी	-8.03643
▁करें	-8.03835
डिय	-8.04002
▁जीत	-8.04023
▁मांग	-8.04647
▁देने	-8.04797
ऊ	-8.06839
▁खिलाफ	-8.06839
▁श्री	-8.06901
ट्र	-8.07295
▁स्थित	-8.08481
▁लोक	-8.08539
▁हमार	-8.09212
ध्य	-8.09575
्ज	-8.09599
क्क	-8.09745
▁6	-8.11109
▁सुन	-8.11222
▁ब्र	-8.11269
▁चाह	-8.11717
▁बच्च	-8.1184
▁चाहिए	-8.1187
▁19	-8.1206
▁सामन	-8.1206
▁मैच	-8.12355
▁करता	-8.12673
n	-8.13261
ज्ञ	-8.13564
▁आयोज	-8.13566
▁संबंध	-8.1377
▁बढ़ा	-8.13899
ष्ट	-8.14203
क्टर	-8.14452
▁चौ	-8.14824
▁7	-8.16378
र्ज	-8.16802
ाँ	-8.1709
▁रुपए	-8.17104
▁बैंक	-8.17107
▁विकास	-8.17114
▁डॉ	-8.17147
▁स्थान	-8.1716
िए	-8.17595
र्स	-8.17626
▁बदल	-8.1764
▁बह	-8.18656
▁जाए	-8.19256
ओ	-8.19808
▁लाख	-8.19908
द्द	-8.19983
▁विभाग	-8.20774
▁मुझे	-8.20777
▁अनुसार	-8.2078
▁पढ़	-8.21398
▁हाल	-8.21456
▁दें	-8.22351
"	-8.22661
▁योजना	-8.22661
▁सकती	-8.22696
वास	-8.22754
an	-8.22799
▁होते	-8.23082
ल्ल	-8.24291
लिए	-8.24478
▁खान	-8.24479
▁गांव	-8.24596
▁खुद	-8.24603
▁मुख्यमंत्री	-8.24615
▁जाएगा	-8.24716
▁प्ल	-8.25375
्‍य	-8.25799
▁जैसे	-8.25825
20	-8.26021
▁जिसक	-8.26101
f	-8.26545
▁दिल	-8.2677
▁राष्ट्र	-8.27635
▁तब	-8.28475
ेंद्र	-8.2853
S	-8.28545
▁मुताबिक	-8.28545
पूर्ण	-8.28599
▁नगर	-8.28674
▁आहे	-8.2876
▁जांच	-8.2899
▁सवाल	-8.29588
▁बैठक	-8.29931
▁अलग	-8.29983
▁हालांकि	-8.30586
▁उत्तर	-8.30586
▁प्रदर्शन	-8.30592
▁समझ	-8.30674
▁15	-8.32211
A	-8.32669
▁छात्र	-8.32678
▁परिवार	-8.32683
▁शहर	-8.32891
▁नौ	-8.3322
▁होगी	-8.33518
▁200	-8.33809
स्‍	-8.34498
▁मुख्य	-8.34773
I	-8.34797
▁ऑफ	-8.34797
▁मीडिया	-8.34797
▁हूं	-8.34828
▁क्योंकि	-8.34828
▁संघ	-8.35182
▁आए	-8.35288
▁जिन	-8.35485
▁तह	-8.36931
▁सर्व	-8.37128
▁मौक	-8.3717
न्न	-8.37272
er	-8.37326
▁बोल	-8.38387
▁जाती	-8.38796
k	-8.39193
▁तैयार	-8.39193
▁घटना	-8.39204
युक्त	-8.39319
▁भाग	-8.39412
▁पहली	-8.39552
▁11	-8.39751
▁12	-8.40109
▁महीन	-8.40631
करीब	-8.40679
▁कार्यक्रम	-8.41467
▁बंद	-8.41601
दर्श	-8.41669
▁दूर	-8.42325
▁दिए	-8.42457
ऐ	-8.4362
▁इस्तेमाल	-8.43791
▁शिक्षा	-8.43791
▁कोशिश	-8.43797
▁शर्मा	-8.43801
▁वजह	-8.43835
▁बाहर	-8.43856
विद्यालय	-8.43966
▁दर्ज	-8.44177
ालय	-8.45658
P	-8.46172
▁विरोध	-8.46172
▁दुनिया	-8.46181
▁स्तर	-8.46537
▁डाल	-8.46552
ियर	-8.46886
िटी	-8.46938
▁बड़ी	-8.47255
▁खास	-8.48573
▁प्राप्त	-8.48611
▁मौजूद	-8.48611
▁हत्या	-8.48634
▁जीवन	-8.48639
▁बड़ा	-8.48698
ार्थ	-8.4888
▁शिव	-8.48922
▁पांच	-8.49044
50	-8.5039
v	-8.51111
▁सुरक्षा	-8.51111
▁2018	-8.51111
▁मंदिर	-8.51111
भिन्न	-8.51121
▁हजार	-8.51134
▁मौत	-8.51142
▁उठा	-8.51157
च्या	-8.51556
▁भेज	-8.51577
जहां	-8.51902
b	-8.53675
▁वीडियो	-8.53675
▁व्यक्ति	-8.53694
▁यादव	-8.53698
▁परीक्षा	-8.53749
▁वहीं	-8.53751
▁कभी	-8.53758
▁जनता	-8.53866
–	-8.56307
▁पाकिस्तान	-8.56308
▁सम्मान	-8.5631
▁अलावा	-8.5633
▁सड़क	-8.56356
▁जुड़	-8.56363
▁हाथ	-8.56387
▁सफल	-8.56402
▁आदि	-8.57083
▁केवल	-8.5747
च्छ	-8.5851
!	-8.59009
▁छोड़	-8.59018
▁न्यू	-8.59046
▁न्याय	-8.59113
▁ब्ल	-8.59541
▁यात्र	-8.59919
▁आधार	-8.60013
w	-8.61787
▁विधानसभ	-8.61787
▁विशेष	-8.61787
▁ध्यान	-8.61803
▁वित्त	-8.61808
▁मदद	-8.61854
▁समाज	-8.6191
al	-8.62168
▁स्टे	-8.62654
ल्ड	-8.64294
D	-8.64644
▁निर्माण	-8.64646
▁फैसल	-8.64647
▁पूछ	-8.64649
▁तौर	-8.64678
▁बड़े	-8.64726
▁चीन	-8.65497
▁रहत	-8.65959
▁जैस	-8.65989
▁सोच	-8.66167
वस्थ	-8.66325
ाइल	-8.66855
ः	-8.67586
C	-8.67586
▁बल्कि	-8.67586
▁विधायक	-8.67586
▁स्कूल	-8.67586
▁जल्द	-8.67587
▁व्रत	-8.6761
▁जवाब	-8.67616
▁सहित	-8.67638
▁खबर	-8.67675
or	-8.67897
▁वाला	-8.67952
▁निकल	-8.67986
▁मंत्र	-8.68451
ेन्द्र	-8.68852
T	-8.70616
H	-8.70616
▁शादी	-8.70622
▁गुरु	-8.70654
▁जाएगी	-8.70749
▁खरीद	-8.70804
सिद्ध	-8.71032
“	-8.73741
▁गिरफ्तार	-8.73741
▁रिपोर्ट	-8.73741
▁गांधी	-8.73741
▁राजनीति	-8.73744
▁आखिर	-8.73746
▁सुबह	-8.73756
▁होंगे	-8.73787
▁निर्देश	-8.73875
▁चाहते	-8.74185
▁क्ल	-8.74271
▁विचार	-8.74286
▁बैठ	-8.74765
▁गिर	-8.74815
M	-8.76966
▁अमेरिक	-8.76967
▁मुंबई	-8.76967
▁व्यापार	-8.76967
▁सूचना	-8.76968
▁कार्रवा	-8.7697
▁प्रतिशत	-8.76975
▁उम्मीदवार	-8.77001
▁किसान	-8.7706
ियन	-8.77075
on	-8.7712
▁युवा	-8.77229
▁यद	-8.7734
▁लिय	-8.77495
▁पूज	-8.77604
▁तेज	-8.78015
म्प	-8.78945
B	-8.803
▁प्रशासन	-8.803
▁सिर्फ	-8.80303
▁अर्थ	-8.80327
▁धर्म	-8.80341
▁जगह	-8.8036
तंत्र	-8.80433
्रेस	-8.80495
▁नीत	-8.80568
▁इतन	-8.81701
ात्मक	-8.83595
—	-8.83748
”	-8.83748
▁उत्पाद	-8.83748
▁क्रिकेट	-8.83748
▁शुरुआत	-8.83748
R	-8.83748
▁शिक्षक	-8.83748
▁शब्द	-8.83749
▁बेहतर	-8.83749
▁पीएम	-8.8375
सचिव	-8.83777
▁अवस	-8.83884
▁निवास	-8.84036
लैंड	-8.84061
सभा	-8.87175
ाधिकार	-8.87312
▁क्यों	-8.87317
x	-8.8732
N	-8.8732
▁संगठन	-8.8732
▁फोटो	-8.87321
▁जनवरी	-8.87321
▁बाजार	-8.87336
▁प्रयास	-8.87354
▁यु	-8.87396
▁निकाल	-8.87421
▁तरीक	-8.87504
▁फोन	-8.87534
▁बीज	-8.87883
क्शन	-8.88097
अलग	-8.88739
ुमार	-8.89241
ाबाद	-8.90092
E	-8.91023
▁फीसद	-8.91025
▁प्रक्रिया	-8.91025
▁भूमि	-8.91025
▁पत्रकार	-8.91028
▁वापस	-8.91038
▁पीछ	-8.9105
▁खुश	-8.91053
▁निगम	-8.91068
▁बीमा	-8.91164
▁नजर	-8.91313
▁शाह	-8.91495
▁गलत	-8.91813
नेताओं	-8.91931
ियल	-8.92708
ियो	-8.93173
ॅ	-8.9487
▁आर्थिक	-8.9487
▁सदस्य	-8.9487
ष्ठ	-8.94877
▁समस्या	-8.94878
▁प्रकाश	-8.94901
▁कार्यालय	-8.94944
▁गयी	-8.95062
▁चुन	-8.95411
▁तरफ	-8.95412
सैन	-8.96612
घाट	-8.98819
▁शुक्रवार	-8.9887
▁मुकाबल	-8.9887
▁आवेद	-8.98873
▁परेशान	-8.9888
▁सहयोग	-8.98884
▁अमित	-8.99019
राष्ट्र	-9.0073
|	-9.00742
०	-9.03036
▁मंगलवार	-9.03036
▁पंजाब	-9.03036
▁शिकायत	-9.03036
▁बुधवार	-9.03037
▁नंबर	-9.03037
कश्मीर	-9.03038
▁राजस्थान	-9.03041
फॉर्म	-9.03042
▁समर्थ	-9.03042
▁विजय	-9.03083
▁तीसर	-9.03086
▁कानून	-9.03111
▁शरीर	-9.03141
▁इलाक	-9.03175
▁संख्या	-9.03257
प्प	-9.03361
शोध	-9.04061
मंडल	-9.04316
W	-9.07384
L	-9.07384
▁अस्पताल	-9.07384
▁आवश्यक	-9.07384
▁कार्यकर्ता	-9.07384
▁भगवान	-9.07384
▁सोमवार	-9.07386
▁राहुल	-9.07388
▁चर्चा	-9.07391
▁घायल	-9.07398
▁राशि	-9.07411
▁कौन	-9.07479
‘	-9.09641
पत्ति	-9.09904
▁उपलब्ध	-9.1193
▁कारोबार	-9.1193
▁बावजूद	-9.1193
▁सुविधा	-9.1193
▁पत्नी	-9.11944
G	-9.16691
▁अक्टूबर	-9.16691
▁बल्लेबाज	-9.16691
▁मुस्लिम	-9.16691
▁स्वास्थ्य	-9.16691
▁हरियाणा	-9.16691
▁कर्मचारियो	-9.16692
▁राष्ट्रपति	-9.16694
▁युवक	-9.16701
▁दिवस	-9.16745
▁सहाय	-9.16757
▁पकड़	-9.16759
▁एयर	-9.16789
ण्ड	-9.16823
ंतिम	-9.16845
▁भर्त	-9.17358
▁आतंकवाद	-9.21691
F	-9.21691
▁News	-9.21691
▁कृषि	-9.21691
▁तस्वीर	-9.21691
▁सितंबर	-9.21691
▁नागरिक	-9.21692
▁मॉडल	-9.21692
▁शनिवार	-9.21692
▁छोटे	-9.21692
▁रविवार	-9.21692
▁चैनल	-9.21693
▁आंकड़	-9.21698
डीएम	-9.21707
▁खराब	-9.21727
▁विकेट	-9.21729
▁पुरान	-9.22136
▁विद्य	-9.26779
J	-9.26955
K	-9.26955
१	-9.26955
▁इतिहास	-9.26955
▁वरिष्ठ	-9.26955
]	-9.26955
▁पीड़ित	-9.26955
▁प्रस्ताव	-9.26955
▁भाषा	-9.26956
▁इस्लाम	-9.26957
▁जुलाई	-9.26958
▁थोड़	-9.26959
▁बिजली	-9.26963
िस्तान	-9.26965
▁टेस्ट	-9.26986
▁निशान	-9.27139
न्होंने	-9.32313
▁उम्मीद	-9.32451
▁Hindi	-9.3251
▁ग्रामीण	-9.3251
▁पश्चिम	-9.3251
▁पुरस्कार	-9.3251
▁भ्रष्टाचार	-9.3251
निश्चित	-9.3251
▁हिमाचल	-9.3251
▁2017	-9.32511
▁परिषद	-9.32511
ent	-9.32511
▁इंटरने	-9.32511
म्बर	-9.32515
▁एशिया	-9.32516
▁माध्यम	-9.32518
O	-9.44642
>	-9.51309
[	-9.51309
(	-10.0239
२	-10.931
ञ	-10.9311
ऑ	-10.9312
औ	-10.9313
